#ifndef SINE_MODEL_H
#define SINE_MODEL_H


unsigned int sine_model_len = 2960;
unsigned char sine_model[] = {
 0x20, 0x00, 0x00, 0x00, 0x54, 0x46, 0x4c, 0x33, 0x00, 0x00, 0x00, 0x00,
  0x00, 0x00, 0x12, 0x00, 0x1c, 0x00, 0x04, 0x00, 0x08, 0x00, 0x0c, 0x00,
  0x10, 0x00, 0x14, 0x00, 0x00, 0x00, 0x18, 0x00, 0x12, 0x00, 0x00, 0x00,
  0x03, 0x00, 0x00, 0x00, 0x44, 0x0b, 0x00, 0x00, 0x70, 0x06, 0x00, 0x00,
  0x58, 0x06, 0x00, 0x00, 0x3c, 0x00, 0x00, 0x00, 0x04, 0x00, 0x00, 0x00,
  0x01, 0x00, 0x00, 0x00, 0x0c, 0x00, 0x00, 0x00, 0x08, 0x00, 0x0c, 0x00,
  0x04, 0x00, 0x08, 0x00, 0x08, 0x00, 0x00, 0x00, 0x08, 0x00, 0x00, 0x00,
  0x0b, 0x00, 0x00, 0x00, 0x13, 0x00, 0x00, 0x00, 0x6d, 0x69, 0x6e, 0x5f,
  0x72, 0x75, 0x6e, 0x74, 0x69, 0x6d, 0x65, 0x5f, 0x76, 0x65, 0x72, 0x73,
  0x69, 0x6f, 0x6e, 0x00, 0x0c, 0x00, 0x00, 0x00, 0x08, 0x06, 0x00, 0x00,
  0xf4, 0x05, 0x00, 0x00, 0x98, 0x05, 0x00, 0x00, 0x34, 0x05, 0x00, 0x00,
  0x20, 0x05, 0x00, 0x00, 0xcc, 0x04, 0x00, 0x00, 0xb8, 0x00, 0x00, 0x00,
  0x64, 0x00, 0x00, 0x00, 0x58, 0x00, 0x00, 0x00, 0x44, 0x00, 0x00, 0x00,
  0x30, 0x00, 0x00, 0x00, 0x04, 0x00, 0x00, 0x00, 0x96, 0xfa, 0xff, 0xff,
  0x04, 0x00, 0x00, 0x00, 0x10, 0x00, 0x00, 0x00, 0x31, 0x2e, 0x35, 0x2e,
  0x30, 0x00, 0x00, 0x00, 0x00, 0x00, 0x00, 0x00, 0x00, 0x00, 0x00, 0x00,
  0x00, 0x00, 0x00, 0x00, 0x00, 0x00, 0x00, 0x00, 0x00, 0x00, 0x00, 0x00,
  0x84, 0xf5, 0xff, 0xff, 0x00, 0x00, 0x00, 0x00, 0x00, 0x00, 0x00, 0x00,
  0x00, 0x00, 0x00, 0x00, 0x94, 0xf5, 0xff, 0xff, 0x00, 0x00, 0x00, 0x00,
  0x00, 0x00, 0x00, 0x00, 0x00, 0x00, 0x00, 0x00, 0xa4, 0xf5, 0xff, 0xff,
  0x00, 0x00, 0x00, 0x00, 0xe6, 0xfa, 0xff, 0xff, 0x04, 0x00, 0x00, 0x00,
  0x40, 0x00, 0x00, 0x00, 0xdf, 0x81, 0x16, 0xbf, 0x68, 0x38, 0x97, 0xbe,
  0x6e, 0x55, 0x7b, 0xbe, 0xa7, 0x4b, 0xfe, 0xbd, 0x82, 0xd4, 0x2d, 0x3e,
  0xa2, 0x50, 0xe3, 0x3c, 0x53, 0x27, 0x3e, 0xbf, 0x14, 0x90, 0xe7, 0x3f,
  0x4c, 0x86, 0x64, 0xbf, 0xef, 0x69, 0xee, 0x3e, 0xd8, 0x91, 0x58, 0x3e,
  0xf4, 0x86, 0x2f, 0xbf, 0xba, 0xb1, 0xf7, 0xbe, 0x74, 0x72, 0x27, 0x3f,
  0x66, 0x3f, 0x6d, 0x3d, 0xee, 0x3b, 0x70, 0x3d, 0x00, 0x00, 0x00, 0x00,
  0x36, 0xfb, 0xff, 0xff, 0x04, 0x00, 0x00, 0x00, 0x00, 0x04, 0x00, 0x00,
  0x8a, 0x33, 0x80, 0xbe, 0x80, 0xfd, 0x79, 0xbc, 0x31, 0x55, 0x73, 0x3e,
  0xca, 0x0c, 0x48, 0xbe, 0x89, 0x45, 0x3e, 0xbf, 0xaa, 0x22, 0xb7, 0xbe,
  0x7a, 0x9c, 0x54, 0xbe, 0xf9, 0xeb, 0xbc, 0x3e, 0x49, 0xef, 0x65, 0xbe,
  0x7c, 0x08, 0x3b, 0xbe, 0xdf, 0x19, 0xb0, 0xbe, 0x89, 0xb7, 0x15, 0xbe,
  0x97, 0xa6, 0x85, 0x3e, 0xab, 0xa0, 0xd5, 0xbe, 0x25, 0xe2, 0xb6, 0xbe,
  0xa5, 0x1d, 0xa0, 0x3e, 0x64, 0x8e, 0x0e, 0xbe, 0xa2, 0xc2, 0x47, 0x3e,
  0x28, 0x88, 0x8f, 0xbe, 0x88, 0xa2, 0x38, 0xbe, 0x6d, 0xd2, 0x83, 0x3e,
  0xa9, 0xc3, 0x68, 0xbe, 0x7b, 0x57, 0x86, 0x3e, 0x4b, 0x97, 0x98, 0x3e,
  0x16, 0xc3, 0xd2, 0xbe, 0x40, 0xba, 0x02, 0xbc, 0x00, 0x88, 0x9a, 0xb9,
  0x0e, 0x17, 0xc2, 0xbe, 0xbe, 0xd3, 0xd2, 0xbe, 0xec, 0x79, 0x94, 0xbe,
  0x7e, 0x39, 0x2e, 0x3e, 0x2c, 0xc4, 0xf9, 0xbd, 0xb6, 0x0b, 0xd8, 0xbe,
  0x17, 0xae, 0xd0, 0xbe, 0x4e, 0xc0, 0xdb, 0xbd, 0xa3, 0x8c, 0x94, 0x3e,
  0x11, 0xb1, 0xd4, 0xbe, 0x4e, 0xff, 0xd8, 0x3e, 0xd3, 0x8f, 0xbd, 0x3e,
  0x11, 0xe5, 0x40, 0xbe, 0x57, 0x4d, 0x71, 0xbd, 0xd6, 0x54, 0x35, 0x3e,
  0x87, 0xd3, 0xa8, 0x3e, 0xa2, 0x02, 0xf1, 0x3a, 0xc0, 0x4a, 0xde, 0xbd,
  0xde, 0x46, 0x6b, 0x3e, 0x08, 0x34, 0x76, 0xbd, 0xe4, 0x8d, 0xa8, 0xbe,
  0x39, 0xa9, 0x08, 0xbe, 0x74, 0xde, 0x9b, 0x3e, 0xff, 0x72, 0x00, 0xbf,
  0xf1, 0x47, 0x86, 0x3e, 0xcc, 0x13, 0x1a, 0x3e, 0x2f, 0x55, 0x67, 0x3e,
  0x12, 0xb5, 0xb3, 0xbe, 0xf0, 0x68, 0xf2, 0xbd, 0x6a, 0xe5, 0x8f, 0x3d,
  0x4f, 0x65, 0x2e, 0xbe, 0xd3, 0xf0, 0xe1, 0xbb, 0x42, 0x7c, 0xc7, 0x3e,
  0xe6, 0x8b, 0x1f, 0x3e, 0xfe, 0x2b, 0xb3, 0x3e, 0x0e, 0x00, 0x60, 0x3e,
  0x20, 0xc6, 0x3a, 0xbe, 0x6c, 0x4d, 0xce, 0xbe, 0xe2, 0xae, 0x54, 0x3e,
  0xf0, 0x82, 0x65, 0xbd, 0x80, 0x78, 0x36, 0x3c, 0xac, 0x5d, 0x93, 0x3e,
  0x23, 0xa9, 0xa9, 0xbe, 0x7a, 0x29, 0x18, 0x3e, 0xfc, 0x15, 0xc7, 0xbe,
  0xce, 0x3c, 0xac, 0xbe, 0x1b, 0x9a, 0xb6, 0x3e, 0xb6, 0xb9, 0xcf, 0xbe,
  0x4d, 0xfc, 0xd1, 0x3d, 0x0c, 0x9f, 0x83, 0x3d, 0x14, 0xcd, 0x80, 0xbe,
  0x90, 0x2f, 0xa3, 0xbe, 0x38, 0xba, 0xaa, 0xbe, 0xb4, 0x0e, 0xf0, 0xbe,
  0x7b, 0xf4, 0xca, 0x3e, 0x46, 0xd2, 0x1b, 0x3d, 0x9e, 0x16, 0x88, 0xbe,
  0x0c, 0x04, 0x0a, 0xbe, 0xe0, 0x29, 0xba, 0x39, 0x4b, 0x88, 0xdd, 0x3e,
  0xbd, 0xe6, 0x83, 0x3e, 0x11, 0xfa, 0x65, 0xbe, 0x25, 0x66, 0x81, 0x3e,
  0x68, 0x48, 0x5d, 0x3e, 0xce, 0x42, 0x91, 0x3d, 0x73, 0xde, 0xd0, 0x3e,
  0x6b, 0x0d, 0x81, 0xbe, 0x0e, 0x51, 0x0f, 0x3e, 0xd8, 0x4e, 0xfd, 0xbd,
  0x9e, 0x77, 0xd7, 0x3e, 0x12, 0x49, 0xf8, 0x3e, 0x40, 0xba, 0xbb, 0xbd,
  0x49, 0x6a, 0xc1, 0x3e, 0x9e, 0xe7, 0xa9, 0xbe, 0x98, 0x50, 0x01, 0x3f,
  0xe5, 0x08, 0xc8, 0x3e, 0xd0, 0x82, 0xf6, 0x3c, 0x38, 0xc1, 0xbf, 0x3e,
  0x07, 0x71, 0xb0, 0xbe, 0xb7, 0x67, 0x04, 0x3f, 0x34, 0x80, 0x66, 0x3d,
  0xd0, 0xb2, 0x7d, 0x3d, 0xdd, 0xe7, 0x09, 0xbe, 0x3c, 0x82, 0x1f, 0xbe,
  0x7c, 0x10, 0xd4, 0x3d, 0x7a, 0xf4, 0xef, 0x3d, 0x73, 0xa8, 0x21, 0x3f,
  0x8d, 0x6a, 0xb6, 0xbf, 0x0e, 0x45, 0x92, 0xbe, 0xa1, 0x13, 0xd1, 0x3d,
  0xff, 0x3e, 0x27, 0x3e, 0x23, 0x6f, 0x9c, 0x3e, 0x60, 0xa8, 0x04, 0x3c,
  0x65, 0x5b, 0x09, 0x3f, 0xc4, 0x50, 0xa5, 0x3d, 0xcb, 0x83, 0xda, 0x3e,
  0x99, 0x5f, 0x04, 0xbf, 0xf4, 0x4e, 0x15, 0xbe, 0x2e, 0x05, 0x68, 0xbd,
  0x2a, 0x1b, 0x42, 0x3e, 0x6c, 0x1b, 0xc1, 0xbe, 0xf3, 0xb9, 0x1e, 0xbe,
  0xf0, 0x68, 0xd8, 0x3d, 0xf0, 0x3b, 0x3c, 0xbc, 0x0e, 0x27, 0x43, 0x3e,
  0x14, 0x3c, 0x3a, 0xbf, 0xc0, 0xa3, 0x63, 0x3e, 0x5c, 0x48, 0x93, 0xbd,
  0x6e, 0xe0, 0xd3, 0xbe, 0x63, 0x2a, 0x27, 0xbe, 0xb7, 0xed, 0xce, 0x3e,
  0xe3, 0x77, 0x97, 0xbe, 0x40, 0x2a, 0xaa, 0x3e, 0x87, 0x4e, 0xd0, 0xbe,
  0xe5, 0xf2, 0x3e, 0xbf, 0xe9, 0x28, 0xdd, 0x3e, 0xee, 0x9d, 0x14, 0xbe,
  0xdf, 0x6b, 0x94, 0x3d, 0xa1, 0x6c, 0x10, 0xbf, 0x84, 0x43, 0x6e, 0x3e,
  0x33, 0x43, 0xa4, 0x3e, 0x97, 0x23, 0xff, 0xbc, 0x1a, 0xa5, 0xe5, 0xbe,
  0x0b, 0x3a, 0x5b, 0xbe, 0xbe, 0x4a, 0x10, 0xbe, 0x62, 0x02, 0x7d, 0x3e,
  0xf6, 0x92, 0xc6, 0x3e, 0x94, 0xb4, 0xfa, 0xbe, 0x41, 0xc3, 0x87, 0x3e,
  0xa2, 0x0c, 0x88, 0xbe, 0x65, 0xc3, 0x9c, 0x3e, 0xb2, 0xe8, 0x5a, 0x3e,
  0xc0, 0x3d, 0xad, 0xbd, 0xc1, 0xea, 0xa0, 0xbe, 0x9a, 0x0a, 0xee, 0x3d,
  0x7b, 0x80, 0xb0, 0x3e, 0xf1, 0xba, 0x3b, 0xbe, 0x05, 0x68, 0xca, 0x3e,
  0x5a, 0x55, 0x95, 0x3e, 0xf3, 0x77, 0xa4, 0xbe, 0x34, 0xe4, 0x5d, 0xbe,
  0x03, 0x21, 0x93, 0x3d, 0x32, 0xa0, 0x5c, 0x3e, 0x38, 0x48, 0x36, 0x3e,
  0xa9, 0xc4, 0x51, 0xbe, 0xf6, 0xc5, 0x2a, 0x3e, 0xe4, 0x13, 0x26, 0xbe,
  0x94, 0x7c, 0xe5, 0x3d, 0x0d, 0xab, 0xa8, 0x3e, 0x3f, 0xdd, 0xaf, 0xbe,
  0xd7, 0x7c, 0xbe, 0x3e, 0x85, 0x04, 0xe1, 0xbe, 0xc0, 0xfe, 0x10, 0x3c,
  0x27, 0xeb, 0xbd, 0x3e, 0x24, 0x2d, 0x5e, 0x3e, 0x9c, 0x77, 0xbe, 0xbd,
  0xb8, 0x69, 0x0e, 0xbe, 0xec, 0xb3, 0xb9, 0x3e, 0xc7, 0x21, 0x88, 0x3e,
  0x6a, 0xd4, 0x97, 0x3e, 0xb7, 0x23, 0x7b, 0xbe, 0x82, 0x20, 0xcb, 0xbe,
  0xf6, 0x21, 0xd6, 0x3e, 0x04, 0xa5, 0x2f, 0xbe, 0x44, 0x43, 0xa7, 0x3d,
  0xa8, 0x60, 0x33, 0x3d, 0xe8, 0x48, 0xf5, 0xbd, 0x67, 0x01, 0xbc, 0xbe,
  0xc0, 0x6c, 0x70, 0x3d, 0x23, 0x03, 0xc7, 0xbe, 0xc2, 0x6f, 0x0a, 0x3e,
  0x05, 0x3a, 0x9a, 0x3e, 0x79, 0x11, 0xae, 0x3e, 0x3e, 0xac, 0x3b, 0x3e,
  0x5e, 0x33, 0xa9, 0xbe, 0xa7, 0x4e, 0xac, 0x3e, 0x0e, 0x69, 0x4e, 0xbe,
  0xc2, 0xb2, 0x66, 0x3e, 0x48, 0x30, 0xb8, 0xbe, 0x14, 0xcc, 0xb4, 0xbd,
  0x54, 0x98, 0xe8, 0x3d, 0x31, 0x02, 0xd3, 0x3e, 0x6c, 0x57, 0x72, 0xbe,
  0x87, 0xc3, 0x6f, 0xbe, 0xbc, 0x6e, 0x9f, 0xbe, 0xbb, 0x0c, 0xd7, 0xbc,
  0x0d, 0x3d, 0xf8, 0xbd, 0xfd, 0x1a, 0x46, 0xbe, 0xc6, 0xac, 0x67, 0xbe,
  0xf8, 0x07, 0xab, 0x3e, 0x9a, 0x05, 0xcc, 0x3e, 0x0b, 0x3a, 0xcb, 0xbe,
  0x03, 0x82, 0x0d, 0x3d, 0xd8, 0xa5, 0x90, 0xbd, 0x4a, 0x3c, 0x97, 0x3e,
  0xc7, 0x7a, 0x88, 0x3e, 0xc0, 0x09, 0x7d, 0xbe, 0x22, 0x45, 0xec, 0x3d,
  0x73, 0x35, 0xd8, 0xbe, 0xf9, 0x2d, 0x7f, 0x3d, 0x95, 0x8b, 0xbe, 0xbe,
  0x86, 0xca, 0x80, 0x3e, 0x75, 0x2e, 0x83, 0x3e, 0x20, 0xb1, 0x33, 0xbc,
  0xe0, 0xcf, 0x93, 0x3c, 0x60, 0xb9, 0x8c, 0x3e, 0x20, 0x86, 0xb7, 0x3e,
  0x29, 0x94, 0x19, 0xbe, 0xcb, 0xcf, 0x13, 0xbe, 0xf0, 0xaa, 0x5c, 0xbd,
  0x3f, 0xb1, 0xe9, 0x3d, 0x7e, 0xf7, 0xbd, 0xbe, 0x28, 0xb2, 0x5f, 0xbd,
  0x13, 0x08, 0xe8, 0x3d, 0x3a, 0xef, 0xae, 0x3c, 0x9c, 0xbf, 0x50, 0x3e,
  0x4c, 0x08, 0xa2, 0x3d, 0xde, 0xd6, 0x57, 0xbe, 0x38, 0x97, 0x8d, 0xbe,
  0x04, 0x1d, 0xc5, 0x3d, 0xa4, 0x6c, 0xd9, 0xbd, 0xf2, 0x1d, 0xb7, 0x3e,
  0xc3, 0x27, 0x77, 0xbe, 0xd5, 0x68, 0x1f, 0xbe, 0xd4, 0xa1, 0x89, 0xbe,
  0x22, 0x84, 0x15, 0x3e, 0xa6, 0x40, 0x23, 0x3e, 0x22, 0xf2, 0x71, 0x3e,
  0x8c, 0x92, 0xac, 0x3d, 0x00, 0x00, 0x00, 0x00, 0x46, 0xff, 0xff, 0xff,
  0x04, 0x00, 0x00, 0x00, 0x40, 0x00, 0x00, 0x00, 0xf8, 0x44, 0x89, 0x3e,
  0x96, 0x27, 0x5a, 0x3e, 0x69, 0x53, 0xe6, 0xbd, 0x75, 0x24, 0xaa, 0xbe,
  0xab, 0x89, 0xde, 0x3e, 0xe4, 0xe5, 0x8e, 0x3e, 0x66, 0x87, 0x0e, 0xbe,
  0x44, 0xbc, 0x53, 0xbe, 0xe4, 0x1c, 0x3c, 0x3f, 0x80, 0x53, 0x3f, 0x39,
  0x2f, 0x5e, 0xba, 0x3e, 0xef, 0xc0, 0x8b, 0x3e, 0x40, 0x80, 0xb9, 0xbd,
  0x4f, 0xad, 0x18, 0x3f, 0xea, 0xe5, 0x5c, 0xbe, 0x10, 0x99, 0x10, 0xbe,
  0x00, 0x00, 0x00, 0x00, 0x96, 0xff, 0xff, 0xff, 0x04, 0x00, 0x00, 0x00,
  0x04, 0x00, 0x00, 0x00, 0xb9, 0x63, 0xf2, 0x3d, 0xa6, 0xff, 0xff, 0xff,
  0x04, 0x00, 0x00, 0x00, 0x40, 0x00, 0x00, 0x00, 0xff, 0xef, 0x8f, 0x3c,
  0x00, 0x00, 0x00, 0x00, 0x76, 0x37, 0x4f, 0xbb, 0xfc, 0x92, 0xba, 0xbe,
  0x5d, 0x58, 0x0e, 0xbd, 0xa8, 0x0a, 0xce, 0xbd, 0x9e, 0xb9, 0x67, 0xbe,
  0x8b, 0x8a, 0x3f, 0xbf, 0x6e, 0x08, 0x49, 0x3e, 0xee, 0x0c, 0xf3, 0x3d,
  0xc0, 0xb6, 0xe8, 0x3d, 0x65, 0x11, 0x7f, 0xbe, 0x00, 0x00, 0x00, 0x00,
  0x2a, 0x78, 0x18, 0x3e, 0x14, 0x4e, 0xd4, 0x3d, 0x98, 0x54, 0xb9, 0x3d,
  0x00, 0x00, 0x00, 0x00, 0x00, 0x00, 0x00, 0x00, 0x00, 0x00, 0x00, 0x00,
  0x00, 0x00, 0x06, 0x00, 0x08, 0x00, 0x04, 0x00, 0x06, 0x00, 0x00, 0x00,
  0x04, 0x00, 0x00, 0x00, 0x40, 0x00, 0x00, 0x00, 0xa4, 0xa3, 0x4e, 0x39,
  0x4c, 0x13, 0x00, 0xbf, 0x61, 0x61, 0x83, 0x3f, 0x00, 0x00, 0x00, 0x00,
  0x65, 0x04, 0x42, 0xbd, 0x85, 0xce, 0x9e, 0xbe, 0x00, 0x00, 0x00, 0x00,
  0x00, 0x00, 0x00, 0x00, 0x04, 0x55, 0x0b, 0xbf, 0x2c, 0x98, 0xc0, 0xbb,
  0x3c, 0x93, 0xd5, 0xbe, 0x3c, 0x15, 0x91, 0x3f, 0x00, 0x00, 0x00, 0x00,
  0xad, 0xd4, 0xd4, 0x3d, 0x00, 0x00, 0x00, 0x00, 0x00, 0x00, 0x00, 0x00,
  0x00, 0x00, 0x00, 0x00, 0x00, 0x00, 0x00, 0x00, 0x00, 0x00, 0x00, 0x00,
  0x24, 0xfb, 0xff, 0xff, 0x00, 0x00, 0x00, 0x00, 0x00, 0x00, 0x00, 0x00,
  0x00, 0x00, 0x00, 0x00, 0x34, 0xfb, 0xff, 0xff, 0x00, 0x00, 0x00, 0x00,
  0x00, 0x00, 0x00, 0x00, 0x0f, 0x00, 0x00, 0x00, 0x4d, 0x4c, 0x49, 0x52,
  0x20, 0x43, 0x6f, 0x6e, 0x76, 0x65, 0x72, 0x74, 0x65, 0x64, 0x2e, 0x00,
  0x01, 0x00, 0x00, 0x00, 0x14, 0x00, 0x00, 0x00, 0x00, 0x00, 0x0e, 0x00,
  0x18, 0x00, 0x04, 0x00, 0x08, 0x00, 0x0c, 0x00, 0x10, 0x00, 0x14, 0x00,
  0x0e, 0x00, 0x00, 0x00, 0x00, 0x01, 0x00, 0x00, 0xf4, 0x00, 0x00, 0x00,
  0xe8, 0x00, 0x00, 0x00, 0x14, 0x00, 0x00, 0x00, 0x04, 0x00, 0x00, 0x00,
  0x04, 0x00, 0x00, 0x00, 0x6d, 0x61, 0x69, 0x6e, 0x00, 0x00, 0x00, 0x00,
  0x03, 0x00, 0x00, 0x00, 0x90, 0x00, 0x00, 0x00, 0x48, 0x00, 0x00, 0x00,
  0x04, 0x00, 0x00, 0x00, 0xce, 0xff, 0xff, 0xff, 0x00, 0x00, 0x00, 0x08,
  0x18, 0x00, 0x00, 0x00, 0x0c, 0x00, 0x00, 0x00, 0x04, 0x00, 0x00, 0x00,
  0xb4, 0xfb, 0xff, 0xff, 0x01, 0x00, 0x00, 0x00, 0x09, 0x00, 0x00, 0x00,
  0x03, 0x00, 0x00, 0x00, 0x08, 0x00, 0x00, 0x00, 0x06, 0x00, 0x00, 0x00,
  0x03, 0x00, 0x00, 0x00, 0x00, 0x00, 0x0e, 0x00, 0x14, 0x00, 0x00, 0x00,
  0x08, 0x00, 0x0c, 0x00, 0x07, 0x00, 0x10, 0x00, 0x0e, 0x00, 0x00, 0x00,
  0x00, 0x00, 0x00, 0x08, 0x1c, 0x00, 0x00, 0x00, 0x10, 0x00, 0x00, 0x00,
  0x04, 0x00, 0x00, 0x00, 0xba, 0xff, 0xff, 0xff, 0x00, 0x00, 0x00, 0x01,
  0x01, 0x00, 0x00, 0x00, 0x08, 0x00, 0x00, 0x00, 0x03, 0x00, 0x00, 0x00,
  0x07, 0x00, 0x00, 0x00, 0x05, 0x00, 0x00, 0x00, 0x02, 0x00, 0x00, 0x00,
  0x00, 0x00, 0x0e, 0x00, 0x16, 0x00, 0x00, 0x00, 0x08, 0x00, 0x0c, 0x00,
  0x07, 0x00, 0x10, 0x00, 0x0e, 0x00, 0x00, 0x00, 0x00, 0x00, 0x00, 0x08,
  0x24, 0x00, 0x00, 0x00, 0x18, 0x00, 0x00, 0x00, 0x0c, 0x00, 0x00, 0x00,
  0x00, 0x00, 0x06, 0x00, 0x08, 0x00, 0x07, 0x00, 0x06, 0x00, 0x00, 0x00,
  0x00, 0x00, 0x00, 0x01, 0x01, 0x00, 0x00, 0x00, 0x07, 0x00, 0x00, 0x00,
  0x03, 0x00, 0x00, 0x00, 0x00, 0x00, 0x00, 0x00, 0x04, 0x00, 0x00, 0x00,
  0x01, 0x00, 0x00, 0x00, 0x01, 0x00, 0x00, 0x00, 0x09, 0x00, 0x00, 0x00,
  0x01, 0x00, 0x00, 0x00, 0x00, 0x00, 0x00, 0x00, 0x0a, 0x00, 0x00, 0x00,
  0x68, 0x03, 0x00, 0x00, 0xf8, 0x02, 0x00, 0x00, 0x8c, 0x02, 0x00, 0x00,
  0x30, 0x02, 0x00, 0x00, 0xec, 0x01, 0x00, 0x00, 0xa4, 0x01, 0x00, 0x00,
  0x5c, 0x01, 0x00, 0x00, 0xd8, 0x00, 0x00, 0x00, 0x4c, 0x00, 0x00, 0x00,
  0x04, 0x00, 0x00, 0x00, 0xd4, 0xfc, 0xff, 0xff, 0x34, 0x00, 0x00, 0x00,
  0x0a, 0x00, 0x00, 0x00, 0x1c, 0x00, 0x00, 0x00, 0x14, 0x00, 0x00, 0x00,
  0x04, 0x00, 0x00, 0x00, 0x02, 0x00, 0x00, 0x00, 0xff, 0xff, 0xff, 0xff,
  0x01, 0x00, 0x00, 0x00, 0xc0, 0xfc, 0xff, 0xff, 0x08, 0x00, 0x00, 0x00,
  0x49, 0x64, 0x65, 0x6e, 0x74, 0x69, 0x74, 0x79, 0x00, 0x00, 0x00, 0x00,
  0x02, 0x00, 0x00, 0x00, 0x01, 0x00, 0x00, 0x00, 0x01, 0x00, 0x00, 0x00,
  0x18, 0xfd, 0xff, 0xff, 0x78, 0x00, 0x00, 0x00, 0x09, 0x00, 0x00, 0x00,
  0x1c, 0x00, 0x00, 0x00, 0x14, 0x00, 0x00, 0x00, 0x04, 0x00, 0x00, 0x00,
  0x02, 0x00, 0x00, 0x00, 0xff, 0xff, 0xff, 0xff, 0x10, 0x00, 0x00, 0x00,
  0x04, 0xfd, 0xff, 0xff, 0x4c, 0x00, 0x00, 0x00, 0x73, 0x65, 0x71, 0x75,
  0x65, 0x6e, 0x74, 0x69, 0x61, 0x6c, 0x2f, 0x64, 0x65, 0x6e, 0x73, 0x65,
  0x5f, 0x31, 0x2f, 0x4d, 0x61, 0x74, 0x4d, 0x75, 0x6c, 0x3b, 0x73, 0x65,
  0x71, 0x75, 0x65, 0x6e, 0x74, 0x69, 0x61, 0x6c, 0x2f, 0x64, 0x65, 0x6e,
  0x73, 0x65, 0x5f, 0x31, 0x2f, 0x42, 0x69, 0x61, 0x73, 0x41, 0x64, 0x64,
  0x3b, 0x73, 0x65, 0x71, 0x75, 0x65, 0x6e, 0x74, 0x69, 0x61, 0x6c, 0x2f,
  0x64, 0x65, 0x6e, 0x73, 0x65, 0x5f, 0x31, 0x2f, 0x52, 0x65, 0x6c, 0x75,
  0x00, 0x00, 0x00, 0x00, 0x02, 0x00, 0x00, 0x00, 0x01, 0x00, 0x00, 0x00,
  0x10, 0x00, 0x00, 0x00, 0xa0, 0xfd, 0xff, 0xff, 0x70, 0x00, 0x00, 0x00,
  0x08, 0x00, 0x00, 0x00, 0x1c, 0x00, 0x00, 0x00, 0x14, 0x00, 0x00, 0x00,
  0x04, 0x00, 0x00, 0x00, 0x02, 0x00, 0x00, 0x00, 0xff, 0xff, 0xff, 0xff,
  0x10, 0x00, 0x00, 0x00, 0x8c, 0xfd, 0xff, 0xff, 0x46, 0x00, 0x00, 0x00,
  0x73, 0x65, 0x71, 0x75, 0x65, 0x6e, 0x74, 0x69, 0x61, 0x6c, 0x2f, 0x64,
  0x65, 0x6e, 0x73, 0x65, 0x2f, 0x4d, 0x61, 0x74, 0x4d, 0x75, 0x6c, 0x3b,
  0x73, 0x65, 0x71, 0x75, 0x65, 0x6e, 0x74, 0x69, 0x61, 0x6c, 0x2f, 0x64,
  0x65, 0x6e, 0x73, 0x65, 0x2f, 0x42, 0x69, 0x61, 0x73, 0x41, 0x64, 0x64,
  0x3b, 0x73, 0x65, 0x71, 0x75, 0x65, 0x6e, 0x74, 0x69, 0x61, 0x6c, 0x2f,
  0x64, 0x65, 0x6e, 0x73, 0x65, 0x2f, 0x52, 0x65, 0x6c, 0x75, 0x00, 0x00,
  0x02, 0x00, 0x00, 0x00, 0x01, 0x00, 0x00, 0x00, 0x10, 0x00, 0x00, 0x00,
  0x86, 0xfe, 0xff, 0xff, 0x34, 0x00, 0x00, 0x00, 0x07, 0x00, 0x00, 0x00,
  0x0c, 0x00, 0x00, 0x00, 0x04, 0x00, 0x00, 0x00, 0xfc, 0xfd, 0xff, 0xff,
  0x19, 0x00, 0x00, 0x00, 0x73, 0x65, 0x71, 0x75, 0x65, 0x6e, 0x74, 0x69,
  0x61, 0x6c, 0x2f, 0x64, 0x65, 0x6e, 0x73, 0x65, 0x5f, 0x32, 0x2f, 0x4d,
  0x61, 0x74, 0x4d, 0x75, 0x6c, 0x00, 0x00, 0x00, 0x02, 0x00, 0x00, 0x00,
  0x01, 0x00, 0x00, 0x00, 0x10, 0x00, 0x00, 0x00, 0xca, 0xfe, 0xff, 0xff,
  0x34, 0x00, 0x00, 0x00, 0x06, 0x00, 0x00, 0x00, 0x0c, 0x00, 0x00, 0x00,
  0x04, 0x00, 0x00, 0x00, 0x40, 0xfe, 0xff, 0xff, 0x19, 0x00, 0x00, 0x00,
  0x73, 0x65, 0x71, 0x75, 0x65, 0x6e, 0x74, 0x69, 0x61, 0x6c, 0x2f, 0x64,
  0x65, 0x6e, 0x73, 0x65, 0x5f, 0x31, 0x2f, 0x4d, 0x61, 0x74, 0x4d, 0x75,
  0x6c, 0x00, 0x00, 0x00, 0x02, 0x00, 0x00, 0x00, 0x10, 0x00, 0x00, 0x00,
  0x10, 0x00, 0x00, 0x00, 0x0e, 0xff, 0xff, 0xff, 0x30, 0x00, 0x00, 0x00,
  0x05, 0x00, 0x00, 0x00, 0x0c, 0x00, 0x00, 0x00, 0x04, 0x00, 0x00, 0x00,
  0x84, 0xfe, 0xff, 0xff, 0x17, 0x00, 0x00, 0x00, 0x73, 0x65, 0x71, 0x75,
  0x65, 0x6e, 0x74, 0x69, 0x61, 0x6c, 0x2f, 0x64, 0x65, 0x6e, 0x73, 0x65,
  0x2f, 0x4d, 0x61, 0x74, 0x4d, 0x75, 0x6c, 0x00, 0x02, 0x00, 0x00, 0x00,
  0x10, 0x00, 0x00, 0x00, 0x01, 0x00, 0x00, 0x00, 0x4e, 0xff, 0xff, 0xff,
  0x4c, 0x00, 0x00, 0x00, 0x04, 0x00, 0x00, 0x00, 0x0c, 0x00, 0x00, 0x00,
  0x04, 0x00, 0x00, 0x00, 0xc4, 0xfe, 0xff, 0xff, 0x32, 0x00, 0x00, 0x00,
  0x73, 0x65, 0x71, 0x75, 0x65, 0x6e, 0x74, 0x69, 0x61, 0x6c, 0x2f, 0x64,
  0x65, 0x6e, 0x73, 0x65, 0x5f, 0x32, 0x2f, 0x42, 0x69, 0x61, 0x73, 0x41,
  0x64, 0x64, 0x2f, 0x52, 0x65, 0x61, 0x64, 0x56, 0x61, 0x72, 0x69, 0x61,
  0x62, 0x6c, 0x65, 0x4f, 0x70, 0x2f, 0x72, 0x65, 0x73, 0x6f, 0x75, 0x72,
  0x63, 0x65, 0x00, 0x00, 0x01, 0x00, 0x00, 0x00, 0x01, 0x00, 0x00, 0x00,
  0xa6, 0xff, 0xff, 0xff, 0x4c, 0x00, 0x00, 0x00, 0x03, 0x00, 0x00, 0x00,
  0x0c, 0x00, 0x00, 0x00, 0x04, 0x00, 0x00, 0x00, 0x1c, 0xff, 0xff, 0xff,
  0x32, 0x00, 0x00, 0x00, 0x73, 0x65, 0x71, 0x75, 0x65, 0x6e, 0x74, 0x69,
  0x61, 0x6c, 0x2f, 0x64, 0x65, 0x6e, 0x73, 0x65, 0x5f, 0x31, 0x2f, 0x42,
  0x69, 0x61, 0x73, 0x41, 0x64, 0x64, 0x2f, 0x52, 0x65, 0x61, 0x64, 0x56,
  0x61, 0x72, 0x69, 0x61, 0x62, 0x6c, 0x65, 0x4f, 0x70, 0x2f, 0x72, 0x65,
  0x73, 0x6f, 0x75, 0x72, 0x63, 0x65, 0x00, 0x00, 0x01, 0x00, 0x00, 0x00,
  0x10, 0x00, 0x00, 0x00, 0x00, 0x00, 0x0e, 0x00, 0x14, 0x00, 0x04, 0x00,
  0x00, 0x00, 0x08, 0x00, 0x0c, 0x00, 0x10, 0x00, 0x0e, 0x00, 0x00, 0x00,
  0x4c, 0x00, 0x00, 0x00, 0x02, 0x00, 0x00, 0x00, 0x0c, 0x00, 0x00, 0x00,
  0x04, 0x00, 0x00, 0x00, 0x84, 0xff, 0xff, 0xff, 0x30, 0x00, 0x00, 0x00,
  0x73, 0x65, 0x71, 0x75, 0x65, 0x6e, 0x74, 0x69, 0x61, 0x6c, 0x2f, 0x64,
  0x65, 0x6e, 0x73, 0x65, 0x2f, 0x42, 0x69, 0x61, 0x73, 0x41, 0x64, 0x64,
  0x2f, 0x52, 0x65, 0x61, 0x64, 0x56, 0x61, 0x72, 0x69, 0x61, 0x62, 0x6c,
  0x65, 0x4f, 0x70, 0x2f, 0x72, 0x65, 0x73, 0x6f, 0x75, 0x72, 0x63, 0x65,
  0x00, 0x00, 0x00, 0x00, 0x01, 0x00, 0x00, 0x00, 0x10, 0x00, 0x00, 0x00,
  0x14, 0x00, 0x18, 0x00, 0x04, 0x00, 0x00, 0x00, 0x08, 0x00, 0x0c, 0x00,
  0x10, 0x00, 0x00, 0x00, 0x00, 0x00, 0x14, 0x00, 0x14, 0x00, 0x00, 0x00,
  0x38, 0x00, 0x00, 0x00, 0x01, 0x00, 0x00, 0x00, 0x20, 0x00, 0x00, 0x00,
  0x18, 0x00, 0x00, 0x00, 0x04, 0x00, 0x00, 0x00, 0x02, 0x00, 0x00, 0x00,
  0xff, 0xff, 0xff, 0xff, 0x01, 0x00, 0x00, 0x00, 0x04, 0x00, 0x04, 0x00,
  0x04, 0x00, 0x00, 0x00, 0x0b, 0x00, 0x00, 0x00, 0x64, 0x65, 0x6e, 0x73,
  0x65, 0x5f, 0x69, 0x6e, 0x70, 0x75, 0x74, 0x00, 0x02, 0x00, 0x00, 0x00,
  0x01, 0x00, 0x00, 0x00, 0x01, 0x00, 0x00, 0x00, 0x01, 0x00, 0x00, 0x00,
  0x10, 0x00, 0x00, 0x00, 0x0c, 0x00, 0x10, 0x00, 0x07, 0x00, 0x00, 0x00,
  0x08, 0x00, 0x0c, 0x00, 0x0c, 0x00, 0x00, 0x00, 0x00, 0x00, 0x00, 0x09,
  0x09, 0x00, 0x00, 0x00, 0x09, 0x00, 0x00, 0x00
};

#endif //SINE_MODEL_H
